conv1_param_0 55.087540 66.417786 196.331131 93.972290 53.879589 139.129257 79.315796 94.895462 56.992859 80.217209 
conv2_param_0 100.395294 115.521568 123.942345 69.323395 116.747192 119.528862 180.621429 126.204559 116.667816 232.230560 56.166328 148.785187 96.609993 138.949417 121.560677 90.263222 
conv3_param_0 411.326599 252.651138 433.311066 298.640747 147.955612 433.834351 327.393341 197.976761 383.704559 383.315308 337.668671 113.181053 307.010712 213.390656 153.767990 511.619995 481.465363 207.114838 351.250031 243.192963 140.955933 342.617126 310.863586 393.643524 432.025543 119.117882 314.643555 252.487717 246.686996 308.342712 494.907776 274.064606 
conv4j-1_param_0 235.220871 232.429260 
conv4j-2_param_0 392.164612 1060.817993 693.606323 854.597961 
conv1 128.281006
conv2 30.792906
conv3 44.133801
conv4j-1 60.693340
conv4j-2 60.693340
