conv1_param_0 52317.750000 43747.429688 42394.437500 44205.164062 78898.007812 58993.554688 31240.125000 29340.269531 44619.601562 33574.160156 26145.404297 36266.144531 57639.621094 25579.224609 27617.867188 41703.656250 32477.212891 31163.730469 39840.972656 29795.154297 53943.781250 42665.515625 69815.726562 36039.214844 65545.171875 51992.996094 30167.558594 30211.345703 30951.785156 53246.238281 42303.093750 71994.820312 39872.234375 52362.132812 49963.121094 46254.320312 30056.314453 49310.921875 47059.957031 45757.679688 26011.996094 39432.699219 31886.226562 38454.273438 30011.066406 36531.464844 31063.185547 36667.500000 54555.937500 45985.226562 43713.015625 27383.716797 29949.033203 55839.230469 79639.257812 40221.664062 48057.953125 73297.992188 44418.710938 37825.238281 27105.611328 29640.966797 34946.820312 77868.976562 
res2a_branch1_param_0 501.605408 519.811890 427.069336 481.836975 392.293762 550.626892 578.478577 333.023682 486.435944 507.616699 568.865479 312.969391 374.284454 454.055054 718.410889 468.724335 582.800659 714.116394 688.091675 452.870087 373.879456 456.591858 435.736450 470.039795 522.873047 810.951782 559.987122 429.385071 601.331421 414.613953 462.751801 523.730835 546.063721 499.602325 441.955292 488.125244 401.672791 367.665070 690.207703 415.352661 340.967316 547.047974 458.780426 638.584656 391.799835 595.045410 471.548889 368.093201 534.854187 524.641296 682.705566 460.334564 360.924530 502.255676 524.844604 412.900482 538.706421 383.612122 485.758850 666.495300 418.355774 616.425842 587.443054 314.291840 
res2a_branch2a_param_0 345.629730 410.465210 217.555298 309.786530 341.651367 504.214600 380.848572 376.175323 365.569977 613.470215 401.117371 254.138397 343.809967 523.643188 448.992615 271.796814 566.569824 332.338074 645.771912 441.533386 388.341705 719.955261 550.667603 467.881561 474.265656 352.636566 414.175995 434.009216 453.387909 506.154144 433.980560 564.040588 
res2a_branch2b_param_0 144.941681 107.725395 118.532120 90.994194 128.603683 101.883522 150.115692 132.549591 124.807556 101.696960 99.193710 109.576492 108.964584 111.280289 101.894463 99.885712 93.847610 117.033455 98.356956 123.018127 125.754562 134.083282 90.151711 122.570656 101.352539 119.825981 170.850143 118.320854 99.806267 100.685745 97.649452 113.003136 102.169670 134.259705 116.794411 129.497131 149.842819 137.120377 146.049988 123.240425 136.588684 127.760353 132.921921 119.502502 92.372787 85.816666 104.352867 91.823410 119.292336 132.410294 127.863739 114.333260 126.683159 109.930656 136.831146 123.443733 120.662392 141.737183 110.349396 103.011078 143.081314 121.387184 88.415634 135.245850 
res2b_branch2a_param_0 245.687195 210.864578 352.211884 202.567581 223.729889 286.112946 193.727036 231.251221 198.418991 190.560776 195.635162 277.299866 259.091522 226.093994 277.695557 165.557022 217.166504 297.517456 241.152802 229.236816 228.739029 183.043655 228.450745 200.521835 205.337692 244.438477 238.341019 224.586487 207.641922 204.947418 253.057098 191.355927 
res2b_branch2b_param_0 98.325790 114.657547 120.914986 119.334633 105.575630 104.190407 111.737366 108.029762 84.870216 97.212357 87.411865 106.618538 103.932831 81.383614 82.745483 105.072678 87.970772 96.504143 113.167503 93.291534 98.880280 103.370110 85.686440 134.107986 104.490082 90.407730 106.479385 80.963837 89.122658 100.690994 99.123665 126.771111 98.574081 115.514946 132.143478 131.022980 79.664467 93.782730 113.413818 118.606400 74.548637 93.898788 136.490311 113.572655 86.123535 91.354004 111.292503 82.710999 98.402176 107.233215 114.279045 113.143524 102.699211 92.866913 95.013634 129.697784 95.316147 102.290276 122.011780 103.616539 103.409248 89.081673 131.650330 84.840004 
res3a_branch1_param_0 537.064575 293.332153 538.621033 500.409637 403.351135 498.093842 412.808319 533.774536 512.493530 479.133606 356.195129 522.361450 694.992126 530.780151 484.821899 457.911652 643.019775 623.461243 729.623291 581.112183 447.900269 519.942932 551.493347 388.612335 363.472290 463.720245 568.805603 567.315552 644.426697 507.496826 429.505005 613.985229 469.247803 544.234619 296.684296 444.199188 675.242859 606.224670 453.104248 338.683044 552.129395 598.678955 486.339142 487.841034 550.257690 358.164154 438.546143 440.565704 722.638489 406.708252 630.323792 377.547943 451.830750 573.047424 600.753784 451.632904 525.736877 415.075378 522.740173 784.930603 483.582153 598.608643 516.496887 644.556274 
res3a_branch2a_param_0 1399.110107 1310.579834 1601.923828 1410.929321 1501.859619 1350.525635 1511.800903 1384.016479 1450.734619 1390.534180 1666.026611 1875.731079 1258.103271 1328.044678 1107.900146 1614.091797 1204.196289 1285.641602 1157.787842 1428.298706 953.363708 1556.795532 1398.389282 1423.907959 1355.921631 1287.974854 1466.067627 1445.386841 1290.040039 1505.166382 1111.249023 1841.918457 
res3a_branch2b_param_0 104.135422 98.002602 106.966515 130.597458 128.871338 109.940765 107.974594 113.557182 130.285400 88.995552 114.255936 119.664871 101.971916 183.012009 105.726959 88.652603 121.407806 101.916046 112.354340 110.476227 114.394318 85.914391 122.150932 107.041840 102.206665 115.360817 114.496407 125.042603 116.874290 132.137497 114.389259 95.807487 127.391167 95.482628 86.472824 112.249771 115.666840 77.926590 108.547096 99.374939 111.990540 123.362816 108.971199 110.086891 168.039383 84.986572 99.257645 106.611748 98.907715 112.351196 119.199074 113.363808 153.539474 108.711693 97.567497 118.612579 93.082848 124.800240 93.192093 115.097122 128.420715 122.252846 109.439728 92.964622 
res3b_branch2a_param_0 208.477280 220.241241 291.665924 320.519348 273.509399 284.768036 246.954575 266.337616 185.616394 289.416595 205.756622 252.370056 263.631714 245.218491 248.922028 283.531250 279.695526 254.929245 295.209412 251.271057 267.588806 262.751953 253.396179 180.159927 253.285904 214.064667 219.920853 284.225739 241.428314 318.026489 233.865128 234.951157 221.742828 224.000351 155.067520 218.957184 226.945358 212.209946 167.400803 251.959534 207.679611 262.760559 244.118256 233.899673 254.870377 182.408936 244.905701 244.034348 276.507538 217.262619 211.282959 240.516602 276.369720 266.369080 195.496384 277.394836 263.664368 222.583176 175.795776 217.423050 184.431717 241.614166 315.140656 200.414246 
res3b_branch2b_param_0 122.831154 130.559982 81.969437 108.798668 158.241608 148.888031 138.198547 112.582230 165.830902 130.388443 127.233948 137.785660 127.242943 128.744873 107.524567 126.502510 161.029648 116.995201 108.408241 133.525330 115.671135 137.586655 109.482521 128.285660 132.462311 105.283646 155.322250 158.619080 106.688667 133.733429 134.062592 168.660370 156.646042 151.909271 145.136673 129.575912 127.638779 108.283165 121.158798 124.515427 140.208206 137.808121 146.497742 157.281509 120.073517 130.908524 114.815941 109.863693 144.305527 148.560532 171.636658 121.772545 110.602394 103.536446 136.084976 129.896362 143.556473 150.711700 160.760300 111.065025 149.573532 133.986008 119.483978 130.585312 
res4a_branch1_param_0 503.598938 397.535950 456.144318 459.479614 563.109070 428.970612 501.765717 427.003418 398.922638 459.919708 541.273376 376.735352 425.784058 430.423798 480.618042 507.056366 397.620453 417.101929 479.964935 435.920654 577.308105 463.162170 330.379547 549.068054 519.115967 417.304413 453.719574 413.744598 492.917908 772.300232 443.218994 483.260895 451.001343 477.273499 430.332672 569.352722 270.227570 513.864685 481.262726 456.937256 534.094482 474.996857 374.811981 452.897766 485.153229 448.019379 463.517548 482.334961 478.235046 480.510132 417.428253 500.298004 333.064117 506.886597 374.194824 521.328613 318.667236 459.412781 527.735474 457.707001 369.128448 447.548431 471.187683 609.627502 410.900055 416.932526 509.543549 402.095673 478.210724 379.882965 453.451385 423.408142 475.972931 453.402557 522.831787 375.343353 502.213165 437.720123 540.357361 447.051697 476.269043 376.857971 373.793762 409.903412 524.339722 465.724304 410.119995 544.656189 373.665680 364.108795 521.481995 285.979858 483.717438 348.513885 477.925995 304.405334 447.263397 363.405670 430.212250 452.155945 449.101898 458.195496 422.635956 533.804749 331.765198 445.289398 489.118011 460.610168 334.930298 356.579010 488.715027 407.637604 347.617401 437.738739 523.526550 577.043701 453.913391 397.598907 415.853577 708.866516 511.958466 514.656555 485.675720 439.947815 549.070740 520.379395 422.613434 499.569336 
res4a_branch2a_param_0 321.892975 364.963318 337.698303 296.407227 331.191742 325.729156 289.639252 288.372070 316.707275 196.856018 184.158875 231.280594 248.530457 214.780640 339.717865 313.903015 290.480011 324.059509 362.863678 263.895172 267.367188 317.058258 233.731567 322.776581 317.204651 270.634674 270.676147 315.335571 294.911530 279.669800 249.282242 334.802856 325.880096 389.500275 293.177368 308.498077 302.022552 341.303101 315.102966 301.309174 305.524658 268.937805 289.395996 311.588501 317.522827 285.933624 332.456299 337.932892 280.506622 362.365845 269.885986 253.555008 369.101440 225.764755 213.373749 317.282501 301.109680 342.691681 301.376099 234.984863 361.775818 268.824005 358.683563 237.332794 
res4a_branch2b_param_0 106.423355 110.303818 110.767715 127.707466 117.051064 90.373932 143.740662 128.238495 114.933899 98.804893 123.124046 110.959297 95.364830 140.929016 103.952087 126.676109 115.032692 107.507599 106.493965 132.188705 164.601334 106.584946 132.521545 131.697922 128.237946 125.454941 147.641846 126.904823 112.868500 130.885635 116.804253 128.697006 116.774651 116.667152 115.412361 106.213242 119.635666 128.712433 123.959984 114.740807 110.180504 118.350044 127.790314 118.820602 103.666428 118.158646 132.193802 138.262711 115.945457 97.302071 109.066605 100.380760 117.857826 108.169495 133.690674 152.794678 74.635826 76.827225 131.758209 126.488884 106.388107 113.444466 111.130386 137.522934 105.196693 98.082550 126.577415 97.519844 129.503738 113.737473 101.857246 155.857559 114.776474 107.686150 134.120834 78.886917 95.537949 101.064003 125.827950 95.434074 123.005470 139.365723 109.094101 82.346672 126.270691 109.911690 114.598457 122.113365 117.979584 119.022514 107.976562 116.990715 111.790314 119.273895 135.410431 122.083893 89.359970 90.968712 111.836914 136.097260 126.007179 118.972252 140.373093 99.934586 127.831451 103.739235 128.872757 125.942451 98.987038 123.094482 96.608070 119.198204 119.207924 79.566765 129.860016 119.073486 128.840897 103.414574 131.823380 132.925247 175.634827 137.127625 103.271744 116.208527 183.603729 134.561264 109.948212 135.483597 
res4b_branch2a_param_0 380.445709 375.829346 451.265045 363.968201 289.142639 384.512238 364.874268 338.239716 344.806763 315.867157 391.941101 248.376938 268.811157 290.175659 328.099792 341.459961 277.245483 302.841522 350.278046 362.471924 481.562286 328.784058 382.710571 430.411591 317.919983 285.381927 457.471649 415.661804 364.035583 302.129578 226.403458 340.513916 358.219757 349.933258 389.012451 337.896820 425.352356 295.185120 347.944214 398.313141 297.886871 348.864136 323.826935 333.945526 361.181641 365.625824 403.243195 416.456268 303.633667 281.772369 330.627686 350.544037 441.666565 325.561920 279.000458 389.457184 376.649139 357.561127 286.944763 334.562775 296.776917 328.696808 361.719452 412.434357 
res4b_branch2b_param_0 79.671349 98.409828 124.978043 121.052635 110.317047 107.430183 111.398621 122.715370 104.907486 95.023979 97.426079 94.871300 102.726875 124.993271 110.895714 108.291397 105.693336 108.245255 110.429092 102.165207 154.521667 90.168556 122.615570 102.756004 99.537102 109.334946 110.324104 93.554642 119.299568 115.362007 114.377144 118.074837 114.442001 122.517265 115.788658 116.018074 113.704178 123.897575 121.108704 123.561279 126.102676 135.960358 95.397507 80.235901 81.236595 117.129776 121.582413 112.829330 99.486771 103.067665 114.321342 116.149094 121.984650 107.132568 119.404625 120.541939 125.944763 124.118767 134.897888 127.537018 116.123924 101.638191 99.308624 124.781822 107.127998 105.490211 130.907303 116.412460 131.158905 105.173866 107.944969 142.247726 103.127426 99.956306 88.749580 120.986870 89.944603 88.020187 114.864029 103.028259 115.792137 127.372078 105.167358 132.903687 115.851074 128.373047 102.753525 91.880424 110.018845 125.776886 106.068817 101.673073 88.659920 96.274345 123.330948 109.352859 123.760078 112.821266 145.427597 121.025803 89.480888 146.682800 104.329643 85.579041 112.247299 140.922211 118.124092 113.790756 82.784645 139.224792 116.162407 131.199936 125.915848 113.348885 120.117821 112.135269 101.644524 103.981781 125.677299 119.931366 112.988762 86.667816 85.980736 90.993561 142.105988 76.350296 118.400360 96.288223 
fc1x_param_0 90.855423 709.386536 194.511841 324.974426 162.905777 229.109100 188.958176 212.695572 128.592041 223.903687 211.632446 226.407730 237.448196 186.743042 187.279282 158.908798 151.006897 167.211487 238.469589 236.337326 189.221298 136.360489 224.523514 213.311447 152.403183 224.093353 154.686050 187.973602 150.064178 164.091980 238.887344 238.281647 211.268936 729.087158 173.891235 170.329361 138.573593 140.782547 164.165451 148.857605 164.094284 179.689484 134.281509 170.940292 164.703415 173.058289 190.383194 154.654404 150.666031 157.856094 195.458176 202.365799 154.742798 181.015106 186.527527 153.659164 186.162399 198.642960 142.107422 173.034302 203.207214 138.811615 181.646408 192.837646 166.579422 155.224365 238.454239 222.042236 180.003952 737.640503 251.882126 230.969238 670.184937 745.500427 678.312012 692.941040 677.225159 716.757080 593.864868 
conv1 0.917024
res2a_branch1 15.720691
res2a_branch2a 15.720691
res2a_branch2b 37.391350
res2b_branch2a 27.427364
res2b_branch2b 39.261097
res3a_branch1 20.946690
res3a_branch2a 20.946690
res3a_branch2b 43.637325
res3b_branch2a 30.425310
res3b_branch2b 49.204010
res4a_branch1 20.411381
res4a_branch2a 20.411381
res4a_branch2b 41.631119
res4b_branch2a 24.520493
res4b_branch2b 35.312496
fc1x 27.205444
