ssd0_mobilenet0_conv0_param_0 1968.651733 516.289246 1215.393188 3772.239746 2259.320312 659.417908 883.688232 1520.442627 
ssd0_mobilenet0_conv1_param_0 710.967163 127.379753 86.181351 26.458132 46.706612 491.586670 920.933289 252.544998 
ssd0_mobilenet0_conv2_param_0 154.593811 157.001938 173.834015 172.851089 120.837547 110.428307 159.703644 114.678970 126.317833 129.185471 163.888580 150.394241 183.350174 125.305969 95.416054 224.067230 
ssd0_mobilenet0_conv3_param_0 167.038208 481.815979 307.011932 472.839050 430.278687 290.642487 84.668579 107.010437 556.399658 235.251160 389.606628 369.489532 224.939789 378.636505 171.287903 131.917603 
ssd0_mobilenet0_conv4_param_0 166.661102 183.304276 293.853333 106.321785 93.674782 176.208359 155.198349 183.149765 361.664825 204.875015 218.571884 132.512955 136.229691 133.124664 118.075172 192.774338 292.088623 211.084305 178.919128 279.991058 126.882141 131.130508 138.031143 116.552994 165.232773 172.142883 259.718658 158.768921 177.655396 185.806473 123.377838 187.145538 
ssd0_mobilenet0_conv5_param_0 173.922073 87.079491 91.034325 81.355194 145.582825 474.447601 427.476410 79.055511 160.233047 502.082123 99.768738 180.757675 149.153168 449.518219 261.986969 328.353546 425.431885 110.994987 147.694046 238.465042 198.751541 343.611115 82.361351 225.096558 153.963272 185.603607 164.369888 59.810452 579.343323 180.681732 76.212364 25.047144 
ssd0_mobilenet0_conv6_param_0 316.527893 157.464096 269.716156 184.774902 159.258118 235.811066 143.904251 165.581421 171.071793 215.497757 141.564560 136.418472 155.984787 139.854874 192.443314 167.348053 119.252502 98.451904 131.304810 217.179947 188.584808 87.295280 183.148972 120.665863 341.259125 126.004417 199.712021 195.634857 101.397133 238.191345 180.760651 143.267181 
ssd0_mobilenet0_conv7_param_0 234.181808 297.694122 242.659088 306.248749 410.894318 219.371231 357.015594 293.678070 364.573761 232.200272 117.214615 380.660431 376.730774 267.242279 100.256462 148.785324 366.701385 166.312286 352.494904 226.937073 307.081390 180.508652 105.258743 407.621033 239.320862 406.960297 225.183838 258.095337 261.645782 112.951942 107.668480 383.219879 
ssd0_mobilenet0_conv8_param_0 289.505066 234.240707 252.573792 226.660339 259.684479 106.908646 130.121017 188.504623 295.208282 228.977402 136.059464 183.100021 199.350372 314.938934 214.154892 246.574127 182.762146 243.433777 168.878571 234.037277 194.774002 184.448242 201.397629 229.181061 225.391769 298.126648 207.462799 129.071518 274.183563 203.021973 186.141327 242.251450 160.407730 392.460571 328.330048 222.825897 143.907410 255.138733 149.112625 389.785065 206.908798 179.755829 287.393982 340.112427 310.788696 181.366760 262.626465 252.526825 264.446838 321.963959 168.103577 285.789642 237.015915 250.544281 225.383499 250.510422 237.188248 324.281494 204.263458 234.762177 157.805923 283.206787 259.296051 269.413025 
ssd0_mobilenet0_conv9_param_0 168.541016 67.648750 147.637604 191.941574 192.231979 222.084335 88.182701 167.524902 204.597046 186.081955 192.409592 117.965950 160.954498 60.473900 201.767624 203.386581 113.798851 301.531647 82.186211 216.848618 73.196449 184.092926 126.631729 371.438995 74.279488 161.429153 74.827217 218.194214 110.156219 136.320053 292.189270 217.209198 261.798920 167.001099 149.235947 42.605373 182.057220 333.940216 122.796249 161.325531 155.237915 375.755249 247.335571 140.419296 244.797195 210.212921 129.769516 269.787231 109.223541 117.366051 199.835052 116.940643 278.781982 268.866852 293.576447 47.159702 99.963432 112.856979 131.530365 144.830566 211.293304 159.364990 138.752518 88.157219 
ssd0_mobilenet0_conv10_param_0 368.729004 368.778900 295.385345 219.625046 611.819580 211.676788 377.228516 347.202972 327.149139 238.822464 434.404358 428.269653 416.323700 438.192596 380.118591 483.291840 510.624847 311.250854 306.865570 276.165405 529.187988 306.599426 411.642029 501.730072 349.774292 394.341248 332.306335 375.225647 497.376038 407.004822 485.303589 331.244446 222.873886 276.878296 409.951050 405.298798 376.473053 435.912170 259.351105 323.334106 238.199524 483.420868 192.090485 342.121124 325.327118 357.168915 496.129425 471.508362 268.502686 330.186920 662.990295 210.702118 421.417999 300.948914 477.326965 666.673157 676.435425 381.548492 220.261368 406.114288 563.149292 380.239471 473.799408 486.130341 
ssd0_mobilenet0_conv11_param_0 307.961639 145.337891 112.795784 237.648300 128.299530 212.677399 289.382111 176.575211 323.641083 304.766754 158.491211 168.436432 138.725433 235.958374 252.417923 332.259979 244.957886 274.394745 281.730438 196.129440 54.238441 355.293091 253.951569 141.681183 252.323318 345.336517 239.629257 237.463242 91.126892 143.862183 145.580185 200.511337 196.809113 203.988617 186.494125 151.840500 87.361069 260.005219 356.469513 175.700684 277.733856 175.522263 269.055847 223.666550 194.076508 171.056763 235.335037 339.864502 299.016357 281.769226 199.115005 386.959290 228.901886 336.899811 126.552223 97.666977 118.018326 153.529907 358.250854 107.946877 135.774002 185.079178 122.817978 253.659058 
ssd0_mobilenet0_conv12_param_0 501.433899 403.768707 371.679291 289.431519 481.527161 331.937561 307.761383 430.265656 312.270264 490.213806 437.009888 319.044525 398.695801 388.601959 285.986511 401.862701 506.686798 312.245117 291.306702 318.076447 658.666199 248.187027 254.493347 397.274994 445.424713 379.678650 417.516754 414.898376 631.147034 295.985809 412.697021 339.915527 327.219238 380.220520 422.725739 395.747131 509.004456 524.844543 498.217285 316.888153 341.011871 302.681000 438.771454 277.866302 291.921722 192.255585 499.483551 155.214783 352.476410 453.070587 215.519333 231.672211 251.049774 433.286926 459.360046 346.750885 233.876251 323.333588 510.138916 415.213806 343.513245 406.285278 386.020233 310.775269 295.103058 325.274506 262.493683 384.391174 376.884674 337.677979 438.146271 447.298737 380.441437 294.608429 632.985657 740.653381 332.877014 523.460876 690.050354 294.608704 214.901169 267.102173 586.274292 307.717224 432.528351 206.587448 555.534241 437.212433 432.159943 224.578827 311.536713 407.135406 585.789062 179.525940 280.977264 185.220581 409.128784 416.889923 240.639297 427.268158 225.573914 437.160889 435.430847 176.401306 400.046204 365.360291 391.128113 384.383606 283.153809 668.975769 449.258270 368.340302 407.652924 309.159485 483.910126 522.665527 403.270844 407.678589 478.786865 353.099609 320.549713 302.510681 316.632874 323.334015 380.491486 390.338562 184.164581 441.704163 
ssd0_mobilenet0_conv13_param_0 90.641747 161.713638 103.273331 71.621132 91.682983 255.054291 161.960403 130.385941 282.861511 115.903664 194.072983 148.567703 167.331085 284.786865 173.991196 259.501709 74.663589 147.969131 337.825989 70.028954 75.871582 361.144592 82.351028 113.167061 216.136810 235.562271 178.630081 125.307159 90.088181 190.597900 100.625542 82.301971 245.448212 192.705872 184.281677 168.852356 75.922630 188.067169 114.200775 62.193047 129.352432 168.629959 115.670074 159.598846 214.979721 72.270462 76.214355 136.021988 117.903999 67.991920 181.257553 131.505676 103.131371 111.889397 180.291031 192.285995 202.504105 152.706085 210.145996 245.758209 199.184769 156.330673 104.241875 229.843567 106.753304 151.154633 206.757614 91.545837 270.155304 160.141998 67.471611 148.893692 154.430099 88.689529 78.586151 100.770187 243.890976 195.098267 133.115265 133.714737 81.713387 167.152542 99.740807 77.844704 135.067810 237.455261 82.171875 68.572243 272.964417 119.380066 203.076202 159.181274 125.459641 90.454193 190.811478 126.205185 159.255768 78.508232 185.349258 69.194267 80.898781 67.960861 182.313660 98.163841 131.812805 279.735199 154.065323 108.653519 216.558075 67.557945 258.645905 215.277283 91.816719 294.750153 146.570724 229.466827 140.051010 137.128525 233.228546 151.093719 273.237732 84.017937 149.857407 173.072113 107.866302 85.152649 143.706360 146.448013 
ssd0_mobilenet0_conv14_param_0 358.799927 473.855225 456.595856 374.765991 503.421875 919.059875 523.016907 555.267456 493.204742 421.622894 754.137268 480.541412 215.935333 633.841187 333.563232 373.136902 386.644623 508.804077 556.013855 446.399109 691.973633 571.513306 592.447693 418.225647 437.485321 310.710968 453.348938 335.534149 473.511780 638.332458 462.667999 566.897156 618.378418 421.075409 316.372437 384.613586 314.169250 388.941620 716.644836 464.491455 283.903931 443.466553 316.867462 338.372650 465.860352 548.403687 293.823975 534.542480 456.317261 355.877136 475.105316 482.930634 192.641953 272.594543 342.595306 511.840332 622.220581 296.563568 448.350098 816.295532 414.620972 409.989929 293.681671 304.869263 286.072113 338.055695 393.600342 543.053772 491.356995 532.917786 539.639771 344.885345 347.738800 383.974365 446.714355 517.828186 444.000549 369.508057 542.343689 403.390533 475.210480 409.373260 384.968414 443.927612 354.435425 416.977814 670.682495 530.138977 345.499481 401.969940 540.893921 413.396118 465.776337 434.969147 315.948639 483.833771 360.876984 303.144165 351.023285 252.317017 359.119476 644.561096 533.211975 354.267883 318.990051 469.510223 410.649384 563.865906 462.724915 371.456390 554.726318 308.714905 316.288177 375.671906 441.251099 457.134399 568.239929 454.033234 370.270538 647.141479 328.174286 517.497742 585.008118 591.640015 387.207306 389.863861 336.267670 618.454468 
ssd0_mobilenet0_conv15_param_0 136.437820 325.899963 181.252304 202.740952 104.391167 200.258224 92.427177 88.447113 132.658066 252.965652 153.255493 204.809875 154.803375 185.030045 68.986320 175.275070 132.660675 158.926331 128.903381 195.010178 137.503891 83.377197 192.425507 101.605843 132.977737 131.299500 214.896973 210.441223 316.231903 123.565361 320.039551 91.222137 148.415359 91.166527 296.434845 75.580879 112.107986 397.387634 161.705475 141.551941 104.714577 236.761475 99.684280 78.668625 80.069481 170.313400 126.030334 76.456093 134.045395 266.316772 286.313019 112.367546 186.060303 117.784805 240.754791 161.591187 200.739456 86.343842 323.663544 80.879204 198.382889 84.676262 180.866455 152.573700 211.514297 308.393524 92.870415 221.498993 84.732475 94.909424 65.456383 104.302132 133.422806 251.828094 187.967651 102.593002 204.601120 234.989624 202.852356 238.643326 297.274292 238.703354 197.360840 130.063644 101.098907 170.543716 127.638824 295.205475 180.651855 181.223709 58.188946 237.836914 332.235962 105.595215 202.911606 85.066673 206.145798 129.938904 151.051926 131.304520 112.640099 262.225128 206.752151 214.402603 104.721733 109.040192 154.787720 262.236053 178.728088 155.863998 155.141571 221.507675 164.739899 96.918053 87.447250 146.615402 133.215836 152.024445 219.340424 86.968094 102.121284 115.456680 112.868591 106.981796 231.868301 115.097969 238.300995 143.148254 
ssd0_mobilenet0_conv16_param_0 294.260559 296.643158 266.074341 423.431488 310.100739 381.264648 254.420944 461.371887 507.800415 491.713104 420.374298 565.083191 480.887268 174.287704 346.016541 340.027313 328.557922 463.852509 303.266663 450.330139 593.187378 392.161285 693.764343 503.736023 508.979675 346.743347 420.254944 397.070068 450.341980 492.959259 393.757446 538.387817 438.956451 509.432098 697.662476 460.480255 686.455505 529.909668 504.758667 301.124237 621.550293 341.894775 542.185486 359.191833 389.380493 377.867126 521.157898 831.697632 397.094940 385.564972 583.762878 353.014130 365.227417 433.752594 367.290863 529.615906 730.887939 472.931091 470.460876 573.370911 584.716858 301.060699 548.782898 457.173431 440.944916 303.115295 450.396973 528.966553 359.506470 638.525269 379.905304 362.093414 414.687134 617.572449 418.182312 371.734283 367.046295 529.847412 480.812408 496.485992 251.930466 351.424011 391.952942 340.250305 427.243011 525.872131 422.219666 556.857910 451.260101 409.812988 422.963989 488.301270 613.338562 340.016296 491.789246 472.794464 414.791931 323.792694 360.103882 676.490051 288.959869 500.925568 427.385437 468.725616 311.468414 518.030090 314.500275 466.938995 405.823181 269.467194 427.659821 516.303223 368.139435 363.760010 497.369415 520.280762 297.757019 588.880432 636.808655 452.364746 495.979004 446.072693 337.711334 580.495667 522.453857 577.783997 514.438049 529.954590 
ssd0_mobilenet0_conv17_param_0 223.093597 165.256851 210.880310 175.547501 153.517181 128.037704 63.424648 219.611557 128.525009 119.168373 227.209412 108.939217 94.287628 75.331734 122.571655 223.007156 256.269318 148.042099 208.342682 96.028275 115.960602 175.067307 161.085968 84.769257 59.910355 198.948090 57.885120 137.304123 119.174408 182.567871 136.536560 231.333099 138.011719 191.993225 149.303574 137.111526 141.572235 102.638039 170.562454 77.502266 83.777283 126.206764 221.296295 251.214828 147.939545 134.608597 180.717072 129.941711 66.296890 205.782166 219.803513 151.229889 124.603226 121.139648 164.603806 208.189499 59.186630 193.317032 139.393753 99.653740 152.887253 148.921341 178.671188 184.655212 276.232544 96.485023 164.641922 99.876534 130.312149 204.289108 84.141899 145.526154 113.073021 197.490891 150.192078 98.682350 96.877571 87.107101 203.095764 151.660843 88.325256 111.867943 139.453598 164.866043 144.448547 243.322159 151.550491 186.239059 143.387985 70.774574 207.854919 149.860306 272.805237 179.001083 126.044296 188.523819 330.312775 113.358208 175.585632 201.491592 165.396698 91.291199 210.613251 235.281219 105.597679 164.624451 203.695587 151.938477 195.163391 88.449539 287.131195 117.646049 172.506546 158.563416 122.696205 90.163536 265.002228 123.604729 77.449760 168.965744 142.717728 222.479889 119.616714 136.373718 191.468948 173.454620 150.373383 223.870117 
ssd0_mobilenet0_conv18_param_0 446.983215 408.417511 612.255737 527.597900 450.291656 455.388489 701.178528 431.397491 527.116333 519.895386 570.967102 506.884735 440.315582 450.137665 596.479248 356.593201 455.764313 329.404480 426.239716 406.911743 288.999878 725.139709 430.524902 476.138855 396.649780 400.974854 552.142883 407.247711 448.440521 573.722229 475.606232 695.992432 401.661957 379.561249 660.019470 541.904663 515.783630 483.151581 407.090118 494.637268 729.017700 407.951782 394.191589 443.258789 412.522156 359.480408 587.232605 676.054382 436.554871 423.500519 474.115082 524.413391 384.000641 474.848236 402.539001 412.933563 466.776154 403.471832 326.825226 424.854279 511.322662 398.614014 382.731232 333.129486 449.934723 491.974670 397.174438 511.641113 472.741241 427.673676 370.858002 543.386658 499.465240 391.995026 450.844391 367.172546 306.002441 371.587311 490.704742 596.202576 324.990051 406.813446 324.958099 358.366760 507.634369 509.374481 492.188263 664.254211 394.950867 441.459686 522.498413 444.810883 326.753174 412.139099 601.948547 437.771149 406.236176 548.744385 463.358032 344.737610 267.100616 483.868164 405.424042 483.686249 670.302612 603.349365 523.313416 466.210327 372.100830 646.978821 511.212067 674.362610 422.342865 619.490845 311.139465 417.775818 475.812164 632.429382 435.866150 373.780975 324.889587 393.126892 318.661682 314.681641 596.336304 490.684967 459.407196 325.767975 
ssd0_mobilenet0_conv19_param_0 146.396088 300.284790 138.372620 100.629005 219.958466 155.085846 117.755798 143.203796 242.139603 128.183197 141.802689 172.453766 101.360245 266.383026 86.220932 200.906006 203.289978 138.522720 176.676636 259.451721 121.467064 162.834183 129.411530 189.119080 151.444122 218.740738 124.499855 153.607254 160.453674 158.433868 113.496956 162.089600 143.132568 243.807556 226.689102 99.586777 191.985321 275.702087 167.787888 135.247040 136.782425 128.019363 130.044510 135.764328 184.117798 176.126999 189.008560 266.178436 173.794159 125.664635 207.178360 202.953674 149.712021 150.147293 158.414581 186.660446 149.724777 73.682541 198.101837 201.075623 116.042496 133.217026 120.621033 193.268265 96.083878 174.827896 177.933594 125.728554 103.801407 117.999893 123.646973 128.262009 54.804977 225.412872 114.349678 179.371307 80.837730 89.881622 112.763557 236.132812 172.763077 201.746384 94.738670 98.211105 106.844902 90.292770 143.506424 107.142509 274.483734 146.699280 148.842133 229.140121 221.067841 171.512054 87.835625 216.718735 101.464569 212.067917 82.301834 123.486786 102.424309 124.363251 82.774117 88.014633 68.768646 115.111809 106.734337 132.528610 132.719528 226.199326 139.889618 191.817719 183.412827 162.666061 180.937042 99.332115 208.285675 253.924530 135.942474 181.482681 146.944534 133.386154 132.188751 139.835770 163.109146 135.872513 101.786591 172.939041 
ssd0_mobilenet0_conv20_param_0 586.358704 348.328552 528.940002 408.998444 404.107361 493.711243 260.463898 372.645477 555.138855 772.481323 336.519897 513.767212 629.924622 730.461975 431.472168 665.019653 428.197205 507.061615 515.170959 432.952545 341.826721 571.270020 419.495514 480.241608 306.612518 457.737335 338.647827 589.242249 565.926147 496.644043 557.773926 486.083008 409.265594 410.368011 618.430847 396.480316 589.971375 712.401672 357.688202 410.884369 381.552521 682.731567 599.042786 360.475281 386.444366 391.968658 481.217072 554.448975 509.360809 260.477600 553.499512 464.083740 546.910217 446.419952 518.348450 320.262238 486.854462 305.352844 403.196381 522.720764 373.315247 428.643799 321.451813 548.924438 399.809326 411.226440 337.746307 355.119141 456.679199 414.143341 337.170410 409.457092 466.650360 615.019714 396.373505 264.310699 394.995667 483.781921 376.924713 501.566101 703.168030 632.109314 432.390991 385.735626 508.356384 373.410492 306.270081 409.371979 410.823334 297.781067 290.009369 376.737030 437.000397 234.409637 546.516724 510.763611 617.798340 571.598206 862.951599 291.693512 616.122681 437.315613 553.245117 480.212616 532.528809 378.607422 291.773865 780.621887 328.103607 495.023865 354.180328 559.159058 641.481201 459.236450 425.512115 437.602173 441.910095 280.503479 480.204956 559.059509 526.185669 483.499786 483.796844 428.255920 299.068237 449.362152 280.026093 492.555206 
ssd0_mobilenet0_conv21_param_0 317.891479 218.952118 245.856293 193.330719 117.193893 161.005615 154.433105 259.821899 231.275772 169.339951 157.146942 197.360901 129.080826 220.783493 137.291534 249.991257 162.896622 161.196869 152.137054 366.597015 172.023560 216.770203 160.601151 154.099731 237.982483 177.372131 270.796265 149.297195 212.081192 256.458099 160.141968 176.048004 256.424072 188.520065 175.256561 222.311874 333.688049 149.129196 191.728073 231.442734 186.036407 107.493355 166.954590 206.450775 183.325317 292.139648 272.860657 104.012421 73.725883 139.696014 119.486420 222.735092 165.995026 240.079758 224.256317 206.503738 193.038010 209.235046 164.653702 181.990631 362.407501 134.454269 224.285049 165.158081 152.626846 92.072945 255.596420 129.430557 159.850616 236.113235 265.547821 147.837326 101.802612 163.110443 194.326569 138.645264 185.698914 275.665314 224.384933 197.044998 210.238434 95.723335 211.238007 205.505539 136.886734 209.854172 160.981216 263.683960 188.783646 133.777359 283.429749 167.073181 276.417603 210.817764 139.621048 230.223465 270.092468 150.610992 267.299957 117.483765 177.513428 172.882278 179.265625 211.466141 170.030792 154.095688 212.523178 158.065689 106.893875 160.401611 232.009964 170.843903 183.792740 134.314026 150.601807 139.360046 204.305939 173.538361 249.505249 288.439758 163.567215 144.484177 211.473633 102.022911 116.143478 127.099586 244.334396 185.088074 
ssd0_mobilenet0_conv22_param_0 420.974579 313.891998 706.003540 560.365540 553.850098 928.173096 344.066559 322.771790 447.884979 578.476807 609.869324 387.302032 347.110107 432.688324 386.174622 489.080963 469.690826 439.834564 369.497009 544.339050 744.601196 529.183228 572.944336 999.874084 332.408112 592.875793 658.859009 332.269012 974.630676 535.486694 737.316589 712.311951 439.498016 752.516052 724.950867 744.144958 290.922241 427.713959 418.055878 456.344849 464.332703 380.422028 540.940002 884.463318 377.953766 450.302216 304.444794 521.608337 501.725464 473.105164 429.649719 349.167419 356.172150 380.782898 394.889740 333.048126 388.786011 379.733612 633.513306 648.347046 436.108826 330.282227 372.205353 321.323730 636.501526 249.448196 632.209656 353.331024 905.851868 483.465546 576.006470 447.726227 488.911621 609.371460 229.882126 446.051178 596.100403 282.699005 429.797058 593.248230 742.389954 631.261597 680.650391 804.710754 814.896301 379.561523 626.769104 719.144958 719.001038 375.169495 604.484375 350.298279 483.979828 571.524292 511.174438 658.728271 354.754547 430.670074 399.794952 723.324341 349.146118 572.189880 497.308746 290.904907 536.470032 593.167358 442.728638 327.069122 383.479523 359.075195 713.513367 254.076263 391.897522 493.104950 464.758026 511.804169 494.246246 504.816956 487.003967 540.672302 509.374481 466.273956 423.379974 497.630890 276.594666 438.054260 884.794983 408.445312 
ssd0_convpredictor1_conv0_param_0 351.584229 306.715546 301.212494 195.110306 347.375031 404.293060 307.813110 359.383057 150.840622 167.216690 150.438431 229.501816 
ssd0_mobilenet0_conv23_param_0 273.493530 178.871719 173.825500 183.268372 142.550613 168.230698 202.993347 247.653778 186.980774 309.247772 205.620178 321.858337 161.157227 100.109558 227.760681 187.925613 183.435410 181.811096 251.896957 140.192856 160.038010 209.689606 164.531494 133.500000 349.468414 198.471939 210.068848 283.345459 209.898987 258.450317 156.378677 148.242325 171.642502 176.729507 179.898636 190.642120 171.803177 296.566864 252.869949 116.256050 145.201096 211.369095 264.096252 145.254730 236.281784 192.243607 226.607712 124.834923 174.236633 215.873352 218.758835 201.791367 239.008591 254.636353 230.882507 176.492203 203.188217 260.355408 114.964828 160.996277 136.856918 418.392273 208.681320 157.699249 190.349472 195.950134 325.250549 157.193848 169.577271 322.464020 138.100845 284.849121 278.196381 86.066277 163.618912 146.315872 211.583817 158.472549 229.504959 264.482452 245.386017 192.425568 268.063965 150.046066 96.979156 200.249710 194.634857 60.809711 198.295853 250.407440 183.766556 124.557266 186.987793 149.905991 150.272491 186.070114 180.193741 140.446869 198.517059 138.695038 121.063637 184.178055 288.838409 190.811783 297.643738 173.180191 213.987961 227.349640 124.227112 292.180206 147.228836 332.777649 235.447220 243.536102 207.005005 216.544083 275.248993 201.794052 156.808548 148.177460 233.098099 204.922409 225.883194 159.442291 225.846848 171.334885 207.049667 203.184097 
ssd0_mobilenet0_conv24_param_0 456.161072 665.851318 542.622498 677.407166 686.000488 367.449493 726.324707 662.684998 408.078827 291.862335 306.276581 460.115814 418.544708 517.909546 375.295105 371.341980 297.215332 537.546448 793.666504 414.768250 510.262115 718.790588 699.324890 495.218353 474.481873 416.445892 660.151001 401.379059 487.982300 847.237427 669.028564 529.925537 451.692596 693.057556 525.854980 669.650574 495.726410 628.905151 336.940796 388.178436 712.252075 225.285080 717.279175 370.009186 465.209534 443.196411 553.780945 540.921997 421.771393 420.376587 590.876343 459.357269 616.383057 324.565674 362.347260 568.926147 674.780579 435.199707 806.710632 474.819855 604.622375 372.516663 348.818115 637.368591 364.083038 557.225769 463.204193 597.517334 578.007446 622.970093 447.522156 286.110992 401.313721 338.874939 368.007721 389.040771 357.432648 536.319275 330.164795 723.667664 557.727356 386.830841 575.771545 466.028900 597.229736 510.200378 579.472107 584.500488 615.598511 554.500916 398.046448 636.198914 497.988892 488.030640 265.094757 686.043884 456.614227 519.710999 603.599243 350.656677 574.332581 562.149353 458.211121 338.261627 509.606812 520.391907 449.178253 434.335236 496.048615 523.358887 321.201111 362.402649 355.162445 603.171814 331.495758 444.290466 393.410248 389.720490 847.244629 559.624573 532.187927 331.738281 449.953644 456.034973 510.627441 406.596130 374.659058 454.147766 630.824951 630.733948 540.218018 565.719177 481.219116 593.713257 485.506989 337.259766 464.536835 340.666748 531.776428 707.531555 595.985657 386.285400 289.396667 591.118469 546.540405 594.645630 275.992554 481.844421 615.973267 356.731049 459.407776 649.483704 414.350891 583.626770 571.129456 441.035645 447.828888 430.513489 739.343750 408.881500 577.344177 527.567383 815.391724 292.216553 514.384521 539.886963 367.058502 436.006592 358.890228 551.411987 505.305847 323.074127 269.066498 501.638245 361.749847 254.428543 557.422913 402.507050 366.772278 561.421082 479.415802 509.831512 449.938293 656.838745 243.932770 523.635376 515.070740 377.095551 358.372772 783.263855 374.470703 724.998901 592.628113 625.714417 389.894653 801.848450 437.828735 366.283844 449.790131 517.635864 549.273926 565.163452 435.152466 673.401917 590.873230 577.111145 518.782043 634.195129 556.332275 332.606842 441.550781 400.987305 352.251953 564.494812 330.767120 307.859955 386.007355 207.031830 447.221710 739.595642 299.200836 271.876862 465.401245 294.053040 750.283447 362.041840 499.210663 511.567200 522.623169 402.746582 419.985107 612.369690 658.472168 464.870483 490.916046 647.656189 503.349091 522.546204 257.053711 607.821350 893.647644 728.678650 504.987457 302.800201 591.771729 493.036926 348.130493 671.181335 591.823792 318.984009 260.587402 437.980591 648.604797 563.221191 357.067505 557.701721 
ssd0_mobilenet0_conv25_param_0 161.584625 133.400146 50.731907 219.839996 202.170883 154.543610 145.990417 194.204071 80.520264 236.220230 152.890198 150.922577 181.675766 67.208130 137.101303 142.452530 80.415337 137.654404 149.259003 115.346764 104.888290 128.191833 112.217041 111.921707 180.280746 238.547867 215.855789 183.277084 77.141808 204.546478 236.353607 194.913071 140.979721 212.406616 137.506851 85.513741 215.578903 226.312027 236.082626 106.864761 149.180573 202.162827 288.743347 204.914734 93.891869 134.668823 105.900154 204.554977 166.911377 130.580536 93.507050 116.817085 285.394379 143.313553 170.762054 164.250610 225.088547 230.519241 207.092926 89.550766 218.120163 128.426361 177.568741 144.751282 141.180267 140.103867 126.488983 140.323227 196.364868 104.601868 126.509712 168.427139 143.240051 238.343414 104.028931 199.745956 153.283813 215.641281 177.178421 124.661049 169.716827 104.912689 99.778481 161.781998 111.283432 172.441177 96.491508 144.629639 159.975433 181.179672 80.010239 178.189392 136.794708 186.118301 78.159126 161.615540 197.834351 212.212967 213.132309 103.313873 172.630737 179.036911 215.049225 169.861450 58.945263 170.293274 207.453644 229.785172 275.298889 152.039948 160.157867 222.707855 163.539703 238.332535 114.495148 181.519165 230.217346 107.561424 184.243011 208.037262 106.346451 148.377197 267.627533 190.886856 216.162308 174.209625 100.885361 159.946564 154.006241 223.610718 221.707687 159.497269 108.365448 234.563812 222.028580 116.062981 114.636833 190.164856 229.626434 175.140335 159.881516 129.787781 154.514572 179.691605 170.276138 136.032761 116.524857 118.779228 143.107468 113.604401 155.312653 232.885468 203.404922 185.621063 222.505753 131.605408 249.376984 145.090897 134.300034 183.260895 92.424278 154.147247 262.679138 109.179398 120.082382 228.218506 93.269241 157.478439 178.962524 127.833984 218.317093 162.381821 209.290421 180.677444 306.451172 105.412834 195.775543 150.538208 212.242065 201.876083 142.251190 96.299850 158.707214 121.226204 86.299973 191.338730 152.109879 241.765961 67.069283 212.419449 247.905823 114.697655 280.737885 255.069031 136.788330 99.336624 160.154068 137.094696 127.910812 200.840149 178.092331 235.769577 114.681763 152.821442 138.507431 205.291000 211.262817 161.259888 114.238113 165.734985 100.616753 327.410065 108.274986 116.621918 125.963860 140.889191 195.571884 221.687820 131.037888 239.542435 124.295044 200.460434 151.098419 137.641159 189.999954 194.066452 222.125610 187.645157 162.773605 148.610031 173.355576 170.266083 165.665680 168.407227 146.006226 98.584129 162.303894 116.279510 163.585083 141.731262 234.395142 80.011284 186.983521 144.594391 125.486938 82.431206 134.959961 166.072281 219.418457 198.349274 119.089005 185.382339 210.573105 210.841202 97.516663 158.528671 
ssd0_mobilenet0_conv26_param_0 735.767151 754.131897 791.114380 418.372620 842.118530 600.253235 502.111206 771.394592 539.345581 540.056885 564.610962 861.451843 912.841370 871.948608 419.417267 1026.483887 806.967651 737.209839 853.153625 737.688965 530.590454 886.313904 598.823120 884.390442 839.177917 438.201233 772.469543 926.566345 1243.219238 468.987152 620.167542 654.521484 767.842285 547.867554 659.464539 764.932251 829.656372 877.773621 551.058655 462.174988 621.484253 599.774963 698.448364 994.431946 619.080566 809.467102 530.604675 847.325073 815.176758 445.030273 329.057251 592.197144 759.821106 706.079407 703.381592 530.598328 760.321045 694.226074 308.387085 754.831970 799.588562 443.948517 968.972778 652.722412 828.582520 507.555878 821.497681 659.317444 323.883728 863.547546 744.745300 395.625397 864.317322 480.557922 1085.363159 593.070251 806.365051 609.704224 812.458679 762.552490 658.830566 925.898865 666.233765 597.038879 508.187134 949.791687 1020.321838 610.473022 1003.118225 791.670593 805.677368 499.511597 736.146667 894.159668 952.219238 766.075500 998.725952 992.822937 944.457703 610.577454 909.852417 766.369263 711.567993 791.894897 475.247620 521.295776 401.749573 348.472290 452.238770 1010.621277 521.989502 946.685791 883.508667 511.193787 923.488831 642.056091 641.913208 473.633301 530.683044 490.655060 824.149780 603.699463 423.527557 856.188171 688.989746 962.534241 706.225525 810.283386 702.269592 352.990631 586.508545 642.442444 700.625732 1031.860229 581.232788 666.481689 760.600464 610.105103 565.064758 555.100403 730.207581 769.001831 956.242493 575.928894 866.675354 1014.337830 461.976837 768.773071 370.911652 743.267761 440.170074 406.526123 480.820435 952.826843 719.135925 655.837463 573.836792 854.633240 738.139526 838.601196 674.031189 748.127197 612.272644 864.568726 505.036957 922.042542 559.640015 621.502869 809.777039 680.714050 524.532959 973.100952 641.805664 349.099060 766.194092 709.262451 854.366516 912.320984 864.466797 823.955322 483.819702 747.243713 417.813629 761.084412 757.495911 882.445984 481.456543 978.384583 1005.468628 791.433899 992.935913 1019.742554 566.677979 956.014343 780.656433 592.020874 612.047485 784.952148 808.975708 524.407471 634.053589 584.440918 1148.431885 764.458801 549.964050 658.319153 899.399780 802.448975 831.403381 794.872131 457.311066 565.566406 616.876587 844.448608 1040.748047 942.787354 879.066040 418.691132 876.540222 641.430359 466.922852 769.047119 928.407227 1113.710693 335.767487 818.612549 743.243408 903.133972 1098.543213 931.103333 1162.213501 679.334106 840.187317 873.113953 636.812927 622.711548 773.255554 677.253723 902.369019 900.261292 833.925110 642.882629 770.927185 713.318237 714.288147 795.801086 927.269043 981.189026 641.984924 809.213989 743.382080 723.819641 461.238434 715.094299 753.391418 547.204895 
ssd0_convpredictor3_conv0_param_0 346.977142 457.872070 538.396423 525.016968 408.643158 519.201111 540.841125 407.062561 421.478912 481.211853 463.103577 364.823242 264.218597 460.573608 355.771576 360.683380 
ssd0_expand_trans_conv0_param_0 794.269958 488.015228 1143.793945 913.964172 595.615295 957.789612 379.893890 805.344910 599.411682 965.454956 703.674866 1266.655884 707.418457 992.027283 745.017578 659.197205 741.362244 852.621338 906.440674 983.348572 553.346313 1067.337158 1283.509399 753.493408 739.187927 894.686768 770.614624 841.276428 1447.976440 1090.476685 1019.418030 750.401855 404.170532 694.675293 593.796082 684.359497 988.209961 680.863586 886.215149 796.221252 360.836395 398.632599 1123.219849 718.874573 1059.476440 554.655273 444.696503 732.487671 699.374573 1008.522705 1016.527771 697.153076 621.993469 824.109558 900.447510 624.188477 912.021423 600.466248 887.210388 914.414062 1201.987305 1103.970337 839.030151 878.965576 852.239014 746.626648 898.938110 507.895691 698.158203 854.746826 820.293274 842.452332 435.165924 592.871704 646.773987 948.136292 835.543518 535.059937 754.343445 1081.352051 965.612000 742.919739 500.047699 788.441528 800.865723 709.866577 726.000183 731.601746 447.680023 1063.623901 617.565063 942.840027 858.409973 1177.728271 472.274994 663.964844 1038.559937 820.286499 812.644897 599.057251 784.619446 825.639221 1000.741211 982.964355 612.163452 533.847717 629.336121 871.678101 814.333618 972.189941 636.657715 498.786255 728.880737 824.186157 642.859985 868.624268 475.592010 475.494568 747.090210 534.316467 1170.545044 368.920685 1067.031372 695.506226 786.402283 453.493195 701.603821 1096.973877 
ssd0_expand_conv0_param_0 1095.612305 3192.691162 3099.383301 3556.894287 3054.707275 1741.407593 1590.887329 1823.887939 2298.078125 1579.052979 2825.310791 2633.212158 3042.877441 2660.676270 1820.560669 1494.810547 2142.410400 2559.142090 3172.450195 2479.253418 2836.020752 2279.835693 1559.000488 1622.314331 2088.540283 3493.827393 2830.489990 1881.069214 3228.259277 3337.509033 1529.712402 1793.731201 2497.834473 2138.043457 2671.884766 3036.914307 2635.252686 1929.675903 1975.020752 2426.622314 3022.256592 2164.788574 3413.601074 2927.268555 1936.966187 1849.622559 3052.387939 2162.733887 2794.441895 3379.266602 2169.370850 2208.414795 3714.865967 2753.164307 3018.479736 2618.539795 2134.961670 2950.271240 1379.105713 2493.680420 1841.790649 3181.024170 2811.102783 2131.515381 1936.730347 3878.808105 1967.956421 1454.720947 2993.245117 3162.179443 2766.375732 2746.250977 2999.782227 2187.080322 3270.399414 2964.211182 2487.948486 2666.147949 1718.036987 2841.854492 1544.712769 2449.909180 3276.919922 2270.455322 2954.815430 1835.352295 1673.759399 2199.921875 1550.580688 2690.398926 2972.725830 2414.149902 2035.473022 2206.127197 3632.163330 1825.843506 3018.402100 2681.978027 2921.287109 2552.690674 2243.477783 2376.538086 2088.959961 2409.899170 1202.375488 2354.330078 2816.552246 2740.587646 2725.763184 2399.703369 1435.005493 2454.714111 2658.863281 2818.782715 2481.581543 1910.597534 3180.668945 2443.906250 2427.705811 2273.232910 2826.254150 2509.689941 2534.143799 1898.474365 2693.699219 2104.066406 2238.584229 2095.871582 
ssd0_convpredictor5_conv0_param_0 284.413269 435.316742 389.539337 338.331482 319.596924 387.616455 319.622498 369.077637 256.535065 375.146851 338.387909 345.342834 299.049561 273.157135 322.283966 328.621521 
ssd0_expand_trans_conv1_param_0 675.419006 536.538208 621.683167 641.430481 602.222900 717.702515 662.266541 626.869080 664.639282 357.900543 727.541809 593.297058 803.595520 959.720581 645.036255 516.272278 867.821960 888.327698 828.163452 770.917542 641.794922 546.790771 713.849182 686.304443 720.369690 481.192291 526.779114 526.769409 465.433350 883.332703 899.778259 363.347321 538.288818 727.400269 386.927124 750.114258 859.450989 879.327271 367.526550 629.293152 483.762970 755.581238 741.812317 484.992950 679.019043 581.184265 636.289429 792.621704 702.728516 479.511963 537.778259 943.122925 743.729492 791.862061 654.865479 628.515198 294.266571 749.291626 579.348267 751.683411 523.957336 683.557739 453.098145 407.116455 640.681824 419.588959 337.537506 407.853119 680.394958 568.200623 948.729980 583.873535 787.144897 782.543274 617.931458 504.058075 828.927856 836.736938 641.499146 691.779785 503.514191 899.092590 828.339661 751.887756 629.016663 1004.653809 594.489197 547.000122 764.294861 731.867126 754.422119 799.454285 857.083496 373.635773 671.987244 717.870483 476.494141 852.972900 879.699707 577.202881 673.729614 779.930542 613.149963 576.604553 730.824097 979.282166 536.034546 677.229980 521.293518 729.748230 692.555176 741.538330 895.836731 749.457581 489.007233 479.245697 507.373260 854.949646 771.746704 608.630005 660.541687 572.875977 911.663513 758.974426 504.085754 466.254730 623.025391 683.366943 
ssd0_expand_conv1_param_0 1432.700684 1988.459717 1667.740479 1766.035034 1262.888916 1829.994385 1958.567871 2543.298584 2217.917969 1536.051392 1913.881104 1717.822266 1718.359131 1764.680542 2504.093506 2093.756104 1949.003052 1750.980835 1766.932617 2047.665405 1321.221313 2108.374756 1750.938721 2209.585938 1999.299438 2324.136719 2103.667969 1797.840332 1870.033813 2070.454102 2002.859619 2425.976807 2108.804932 2946.770752 1739.544800 1781.307373 1710.646606 2056.552979 2051.557861 2123.165771 1772.907593 2996.005127 2035.083008 2002.453979 1899.418457 2278.833008 2430.282227 1971.754028 2571.543701 1931.016357 1270.040527 1455.689331 2428.845215 2329.181885 2380.681641 2464.520508 2342.910156 1693.107056 1943.917358 2072.781738 2853.806641 2376.579102 3411.006592 2013.013550 2022.999146 2533.187500 2294.999512 2195.760742 2679.630371 2183.347168 2036.552979 2312.433594 2952.964111 1345.633545 1685.925537 1871.851196 1989.977661 1271.706665 2294.786621 2664.506348 1698.163940 2688.432617 2066.334717 1444.979858 1740.432373 2198.109375 3202.424072 1998.106567 2139.104980 1907.785278 1688.967651 1606.541260 2496.249268 1363.945557 2694.570801 1442.545288 2614.401855 1951.053833 2112.750732 2460.970459 2338.406982 1805.176880 1750.842163 2259.112549 1546.699707 2670.083008 1413.259277 2315.384033 2090.641602 2070.940186 1990.553345 1527.548462 1412.330200 1916.381226 2361.007080 2127.036133 1859.479736 1677.241333 2393.218506 2227.554443 1428.115479 1939.805786 1642.989868 1774.485962 1584.682495 1557.346191 2143.021240 2060.564453 
ssd0_convpredictor7_conv0_param_0 368.199280 531.643005 421.006195 443.325134 356.293121 498.153046 411.706512 331.206085 324.292633 441.949615 378.170074 431.887482 404.131073 383.191711 297.645538 405.078705 
ssd0_expand_trans_conv2_param_0 768.630737 721.395874 519.794312 584.245667 649.423279 793.838684 377.563324 442.042664 376.670990 498.806946 799.149658 702.447876 603.703735 496.472076 557.703857 661.825500 484.574707 577.506775 631.330200 586.592529 600.674438 756.656555 852.760986 585.896057 774.863159 542.781433 819.030884 509.603577 680.561646 674.511353 728.058105 580.838013 790.423706 457.076111 868.874084 954.104858 450.130493 773.015625 647.408691 590.793213 607.322693 540.411194 546.253784 904.380371 574.327698 601.771973 583.692688 539.898743 921.345520 519.720215 710.211487 513.281616 629.792542 584.437134 361.692261 718.383362 706.846802 425.277130 539.041748 575.171692 717.580261 638.769348 936.219849 462.613251 549.705566 666.831909 548.710083 514.143433 621.610474 712.195435 712.619385 534.559143 504.924072 719.672485 569.440308 667.370911 844.559753 349.798676 532.691711 842.671997 490.310883 581.951843 682.043884 911.720642 373.097473 696.128723 444.867828 688.554504 540.741455 632.210693 885.127502 695.557556 699.266846 542.894897 556.868103 469.993622 579.201416 704.087097 590.308105 827.103821 596.237183 574.390442 541.070618 676.578491 697.936279 587.266174 858.644470 503.657684 482.723633 677.144348 809.991089 607.055298 470.185120 858.378967 536.890747 460.282867 602.635193 580.395447 787.160889 585.883362 807.296204 477.819031 642.213745 868.831116 553.119446 774.907104 551.007751 562.541016 
ssd0_expand_conv2_param_0 1440.430298 1504.085449 1501.441895 1549.641357 2275.629395 2264.258545 1851.989624 1568.848877 2172.321533 1953.400635 1250.030029 1483.165649 1671.377319 1288.374023 1282.428345 1936.364624 1194.307373 1548.661255 1556.117554 1722.009277 1769.111206 1287.922974 2421.587158 1359.964233 1755.010132 1854.844849 2453.256348 2278.629395 2125.784180 1709.634033 1465.216553 2201.465820 1461.615601 1993.289062 2168.419189 2276.124756 2038.380615 2200.748047 1630.285645 1373.718506 2378.556885 2372.389648 1666.561035 1579.899780 1708.469727 1503.072021 1633.176758 1448.028442 1742.250732 1188.471191 1930.098755 1335.381226 2460.948242 2109.495605 2214.950439 1564.998535 2062.145020 2487.719971 1712.140991 1614.939209 1859.496948 1463.903564 1137.246216 2269.218018 
ssd0_convpredictor9_conv0_param_0 329.773071 383.417877 441.075562 439.739990 335.804688 398.451080 349.309540 363.808258 260.986176 399.375092 310.469086 365.035767 
ssd0_expand_trans_conv3_param_0 670.854187 473.197876 342.022949 646.745117 377.555206 738.419556 506.328583 724.372253 438.029419 740.550720 457.930939 384.377625 590.756592 638.850769 327.218201 519.126587 404.142578 512.333069 461.215729 385.785400 426.125275 399.895966 491.705109 376.774445 547.608093 398.033142 357.303711 530.969116 512.129761 476.532440 515.126404 469.005951 409.374603 386.701935 442.058746 272.525238 446.542145 468.891907 462.198364 456.496674 812.596252 444.757965 424.405334 442.787109 649.267700 441.815247 714.966675 330.980347 361.976898 567.331421 567.168701 343.042175 444.285706 349.983551 584.437866 444.046570 576.778564 389.544800 698.371521 444.172546 342.358734 738.832397 509.263672 396.223114 594.352173 439.833984 378.804321 435.446686 496.785980 410.737946 502.290588 500.222656 504.748199 445.304901 451.398621 445.019867 457.111755 476.516632 334.159912 494.591278 485.196655 451.529083 336.906525 619.107849 479.770416 534.944946 706.694336 330.331726 689.923279 662.587097 456.995514 367.651550 353.683136 425.638550 555.577637 327.902344 509.882996 259.525269 542.848206 386.006012 448.322906 308.355682 456.571594 383.556854 439.264343 459.768585 477.870209 508.288727 414.918732 335.757660 389.654083 500.903076 674.572327 351.031982 525.338867 473.662781 602.785278 422.434509 523.084656 459.133087 375.783844 418.566681 443.036530 467.388855 482.250122 439.939545 411.766205 487.853607 
ssd0_expand_conv3_param_0 1118.853271 1109.017578 788.867493 1054.251831 646.442505 788.832092 884.615540 1095.920532 712.279114 1008.215393 1368.556152 1001.380066 733.575317 1037.407715 1384.961304 848.578247 759.823914 813.036011 1398.146606 700.703857 1455.263306 1534.318726 924.885132 947.631958 1538.444336 879.997498 827.294312 1306.283447 1050.643433 1199.233521 1827.871338 856.318054 1009.227661 1359.804810 1125.271240 1538.556885 1727.569458 1478.544189 1103.597046 1961.625122 832.154907 880.209229 1827.571289 2007.996948 1076.663574 1264.130859 646.450745 1845.133911 816.133972 860.910339 1098.423706 1443.726807 866.409668 1075.894287 1182.735840 841.376831 1206.926392 856.776550 1090.914185 1810.464844 1190.480957 1277.732300 786.202576 1065.085693 
ssd0_convpredictor11_conv0_param_0 433.531708 160.188965 502.741394 125.547523 511.136566 163.085068 452.730408 131.205811 505.866730 176.873032 193.379852 208.695389 
ssd0_convpredictor0_conv0_param_0 240.842239 248.396423 218.311798 239.372849 110.033813 115.266846 
ssd0_convpredictor2_conv0_param_0 276.147949 305.226746 276.691681 325.631378 264.393616 283.983948 237.079071 256.123199 
ssd0_convpredictor4_conv0_param_0 224.599075 180.354691 179.527344 254.314621 231.950607 187.422379 186.322021 223.448120 
ssd0_convpredictor6_conv0_param_0 289.487274 297.527557 295.949005 315.993988 320.098785 308.708984 306.865814 300.896271 
ssd0_convpredictor8_conv0_param_0 183.950363 178.359116 251.958374 236.162445 205.191223 180.463333 
ssd0_convpredictor10_conv0_param_0 181.680023 182.190628 172.518982 181.985825 175.715973 176.311874 
ssd0_mobilenet0_conv0 127.782143
ssd0_mobilenet0_conv1 42.916119
ssd0_mobilenet0_conv2 47.385948
ssd0_mobilenet0_conv3 25.047808
ssd0_mobilenet0_conv4 101.251289
ssd0_mobilenet0_conv5 28.844938
ssd0_mobilenet0_conv6 88.073074
ssd0_mobilenet0_conv7 16.342346
ssd0_mobilenet0_conv8 52.306728
ssd0_mobilenet0_conv9 24.196474
ssd0_mobilenet0_conv10 34.670475
ssd0_mobilenet0_conv11 24.274176
ssd0_mobilenet0_conv12 45.702103
ssd0_mobilenet0_conv13 22.470497
ssd0_mobilenet0_conv14 32.823700
ssd0_mobilenet0_conv15 19.972466
ssd0_mobilenet0_conv16 21.848469
ssd0_mobilenet0_conv17 23.655012
ssd0_mobilenet0_conv18 23.577156
ssd0_mobilenet0_conv19 21.372530
ssd0_mobilenet0_conv20 21.069452
ssd0_mobilenet0_conv21 22.695093
ssd0_mobilenet0_conv22 16.403872
ssd0_convpredictor1_conv0 32.367886
ssd0_mobilenet0_conv23 32.367886
ssd0_mobilenet0_conv24 31.238958
ssd0_mobilenet0_conv25 27.747927
ssd0_mobilenet0_conv26 23.752586
ssd0_convpredictor3_conv0 34.136898
ssd0_expand_trans_conv0 34.136898
ssd0_expand_conv0 43.321339
ssd0_convpredictor5_conv0 60.161377
ssd0_expand_trans_conv1 60.161377
ssd0_expand_conv1 96.829994
ssd0_convpredictor7_conv0 96.419731
ssd0_expand_trans_conv2 96.419731
ssd0_expand_conv2 112.949364
ssd0_convpredictor9_conv0 117.051880
ssd0_expand_trans_conv3 117.051880
ssd0_expand_conv3 117.880180
ssd0_convpredictor11_conv0 43.688511
ssd0_convpredictor0_conv0 32.367886
ssd0_convpredictor2_conv0 34.136898
ssd0_convpredictor4_conv0 60.161377
ssd0_convpredictor6_conv0 96.419731
ssd0_convpredictor8_conv0 117.051880
ssd0_convpredictor10_conv0 43.688511
