conv1_param_0 177.294968 163.348358 214.768692 161.993729 493.828674 141.659988 173.411469 186.452377 214.375000 129.745987 203.489792 175.768158 248.497711 330.493591 127.181168 178.986008 197.657883 163.067139 241.372498 130.854172 159.533524 215.408875 163.492157 200.140930 129.698547 248.166122 323.073883 247.931107 
conv2_param_0 379.362732 279.894470 484.692596 513.300842 429.277283 281.265869 450.743866 2022.702026 525.500000 729.940430 389.965485 550.139099 348.917267 282.051697 379.017670 340.533844 557.010010 539.842163 918.899658 560.147095 499.230316 637.925110 411.357422 317.126556 332.540894 361.555298 974.707397 430.771057 255.635864 498.091187 572.875732 356.993195 481.403656 509.928589 569.835754 1190.273926 551.267700 323.104980 628.455322 465.463409 304.624329 477.848602 254.447174 302.122711 919.758789 384.584778 274.255463 345.440155 
conv3_param_0 1718.994385 1720.024780 3528.373047 1937.345947 3867.339600 2622.925781 3296.006836 1683.950073 868.802063 2046.220459 1096.932495 822.266235 1244.054077 1488.933716 8269.191406 2838.379883 2299.730957 1328.588501 2623.622559 1816.285645 1607.282593 935.056885 1251.654785 1414.418213 1435.200562 1906.809814 5270.762695 4495.771973 2551.000488 6202.121582 1246.749878 1646.224854 1911.702515 2036.755371 2088.359375 2412.307861 1995.234741 3375.940430 1371.696899 2283.054199 1222.032837 4822.361328 2005.719482 2062.450928 1154.945923 1167.486084 1543.079834 1407.281250 4926.997070 1554.951904 1814.180420 3576.182373 2001.782593 5180.591797 1560.025635 6766.194824 2406.471436 1271.480347 1228.112915 1394.627075 3785.667969 2299.082764 3502.201660 990.431519 
conv4i_param_0 3173.040527 6606.410645 5091.671387 2945.917236 2757.952393 6427.757812 3854.978516 31292.353516 4317.443359 4060.226074 4090.298340 32811.695312 4324.298828 2291.301514 4096.560547 6939.576660 5657.490723 8613.297852 32941.625000 6420.799805 7168.238281 16753.021484 31086.582031 31591.671875 4520.035645 30744.478516 6469.116699 2406.558105 22654.552734 30231.476562 5114.617188 19793.201172 15309.973633 2810.783691 4254.441895 4852.389160 33161.054688 2464.829102 4201.922363 9223.083008 26043.644531 6361.639160 1899.525391 6557.956055 11451.745117 32990.339844 2507.967529 31312.951172 15258.479492 7103.515137 3252.202637 6711.393066 29567.472656 6201.278809 2841.476562 9294.121094 4373.063477 32553.974609 13987.918945 10144.081055 8073.200195 32050.082031 3996.666260 16902.636719 3826.989258 27495.335938 3741.065674 10989.540039 5023.043457 6364.135742 10845.731445 3566.777588 30500.703125 17687.015625 33367.093750 9987.468750 4775.515137 29880.009766 2208.451416 5788.289062 5842.459473 8692.186523 31273.798828 4238.612793 16286.313477 17326.843750 3787.566162 4054.642822 32094.880859 25141.771484 21401.470703 5416.196289 5100.023438 2234.385010 14356.091797 32913.207031 9710.502930 5482.923828 11374.194336 4030.250732 11367.270508 5686.830566 7997.246582 4358.894043 22155.544922 6145.131836 4008.210693 3586.256104 10529.661133 4173.777344 5675.777344 8649.624023 4890.933594 5290.306152 33464.351562 3016.974121 8430.769531 27268.974609 15095.580078 1886.544800 9048.619141 9222.210938 7521.311523 2769.813477 6778.404785 28850.787109 1816.880371 6977.755859 
conv5i-1_param_0 269.803772 271.333862 
conv5i-2_param_0 305.791046 525.734863 402.892609 557.812744 
conv1 128.281006
conv2 68.111687
conv3 61.343418
conv4i 155.152695
conv5i-1 143.555908
conv5i-2 143.555908
