conv1_param_0 618.053955 712.737122 258.529236 1917.351074 762.418701 395.336670 351.798859 403.432739 359.390411 1110.312622 1033.499268 488.575348 1133.224121 319.428040 1057.627808 749.127258 940.270508 6440.875000 361.684479 988.146912 458.232941 640.018799 545.086365 632.068237 797.538330 2520.412109 991.016357 875.591797 521.709106 570.790222 979.925171 888.199280 
conv2_param_0 1453.184082 777.987244 1568.053955 1169.507446 491.836639 789.923157 582.234131 1495.315430 777.569458 468.157471 1189.062500 861.579224 804.992065 472.302460 1265.905884 1359.869507 948.161743 641.445679 734.851440 1235.582275 969.403503 859.123047 588.317505 1275.329712 1306.435669 1103.736816 810.021240 962.471436 848.458496 576.221252 563.707031 906.291931 
conv3_param_0 1070.723022 1523.584351 1052.994873 1654.131226 796.898010 1385.201904 1312.146973 1100.369873 772.912231 1152.879028 1306.373535 651.208130 1076.784058 1375.367798 720.154419 918.004150 1039.036499 716.839905 1186.511597 861.510559 871.966309 690.572205 921.045349 1255.069458 689.428345 1239.710327 1054.736938 787.365356 830.597351 959.626282 1526.283691 894.621521 873.832336 973.846436 843.206543 1292.657471 1471.166870 820.978638 1140.570435 748.357605 1024.874390 886.851257 753.488037 1472.975586 988.640991 727.751587 1262.574707 1472.108521 1061.396729 1222.965942 725.129456 1136.656860 1279.638672 1517.680664 1515.531982 1218.167725 1062.732788 1093.325562 849.029053 1425.586914 1320.497192 795.123962 1151.249634 952.815308 
conv4_param_0 967.951111 1205.066772 1333.720093 1219.532349 1429.463379 1152.442993 1525.005981 1246.620361 1217.941528 1496.260254 1306.341553 1070.025513 1161.191406 1002.174805 1326.387817 1121.346558 1597.282471 1452.996582 1352.958740 1177.216553 1289.153809 1086.407349 1081.697144 1160.744629 1371.709839 1157.090332 1345.543213 1026.629272 1047.071289 1167.111572 1270.591309 1254.194702 1159.908691 1185.820312 1247.116577 1003.217407 1111.326416 1212.911499 1460.466187 1129.895386 1085.605225 1141.971191 1169.982178 1272.852661 1158.954712 1246.428345 1479.100830 1001.465515 1130.778076 977.871887 1330.794678 999.270325 1500.368896 1091.609741 1160.676270 1211.569580 1291.907959 1282.516724 1222.211548 1229.185913 1357.996582 1311.934204 1034.644531 1474.295776 1390.411377 1497.270874 1273.623413 1404.747437 1326.670288 1289.662964 1301.636719 1121.373901 1544.980469 1233.363403 1147.641846 1251.424438 1150.082642 1071.305664 1289.491211 1084.484253 1227.046265 1286.841431 1401.169800 1273.702759 1126.197632 1369.887207 1322.753540 1379.402100 1361.069336 1424.833618 1208.236328 1350.397339 1316.363647 1110.955078 1527.653198 1192.119385 1340.707397 1173.785645 1287.633179 1765.717285 1159.287598 997.360718 974.757324 1158.775635 1360.058228 1426.132202 1259.677124 1321.092896 1616.961670 1330.834717 1321.569702 1133.489502 1431.213989 1019.819885 1290.513794 1464.687744 1156.141113 1384.719971 1089.485107 1150.422363 1132.098389 1311.512573 1401.600830 1165.211182 1447.883667 1475.340942 959.049072 1125.529053 
ip2_param_0 1551.756104 3418.006836 1720.741821 1912.738159 3275.450439 
conv1 0.727049
conv2 0.850805
conv3 1.488559
conv4 4.290051
ip2 21.989735
